{
    "activation_encodings": [
        {
            "bw": 8,
            "dtype": "INT",
            "enc_type": "PER_TENSOR",
            "is_sym": false,
            "name": "input",
            "offset": [
                0.0
            ],
            "scale": [
                0.00392156862745098
            ]
        },
        {
            "bw": 8,
            "dtype": "INT",
            "enc_type": "PER_TENSOR",
            "is_sym": false,
            "name": "/net/net.1/Relu_output_0",
            "offset": [
                0.0
            ],
            "scale": [
                0.021972029816870596
            ]
        },
        {
            "bw": 8,
            "dtype": "INT",
            "enc_type": "PER_TENSOR",
            "is_sym": false,
            "name": "/net/net.4/Relu_output_0",
            "offset": [
                0.0
            ],
            "scale": [
                0.039696360569374235
            ]
        },
        {
            "bw": 8,
            "dtype": "INT",
            "enc_type": "PER_TENSOR",
            "is_sym": false,
            "name": "logits",
            "offset": [
                -144.0
            ],
            "scale": [
                0.19311966241574754
            ]
        }
    ],
    "param_encodings": [
        {
            "bw": 8,
            "dtype": "INT",
            "enc_type": "PER_CHANNEL",
            "is_sym": true,
            "name": "net.0.weight",
            "offset": [
                -128.0,
                -128.0,
                -128.0,
                -128.0,
                -128.0,
                -128.0,
                -128.0,
                -128.0,
                -128.0,
                -128.0,
                -128.0,
                -128.0,
                -128.0,
                -128.0,
                -128.0,
                -128.0,
                -128.0,
                -128.0,
                -128.0,
                -128.0,
                -128.0,
                -128.0,
                -128.0,
                -128.0,
                -128.0,
                -128.0,
                -128.0,
                -128.0,
                -128.0,
                -128.0,
                -128.0,
                -128.0,
                -128.0,
                -128.0,
                -128.0,
                -128.0,
                -128.0,
                -128.0,
                -128.0,
                -128.0,
                -128.0,
                -128.0,
                -128.0,
                -128.0,
                -128.0,
                -128.0,
                -128.0,
                -128.0,
                -128.0,
                -128.0,
                -128.0,
                -128.0,
                -128.0,
                -128.0,
                -128.0,
                -128.0,
                -128.0,
                -128.0,
                -128.0,
                -128.0,
                -128.0,
                -128.0,
                -128.0,
                -128.0,
                -128.0,
                -128.0,
                -128.0,
                -128.0,
                -128.0,
                -128.0,
                -128.0,
                -128.0,
                -128.0,
                -128.0,
                -128.0,
                -128.0,
                -128.0,
                -128.0,
                -128.0,
                -128.0,
                -128.0,
                -128.0,
                -128.0,
                -128.0,
                -128.0,
                -128.0,
                -128.0,
                -128.0,
                -128.0,
                -128.0,
                -128.0,
                -128.0,
                -128.0,
                -128.0,
                -128.0,
                -128.0,
                -128.0,
                -128.0,
                -128.0,
                -128.0,
                -128.0,
                -128.0,
                -128.0,
                -128.0,
                -128.0,
                -128.0,
                -128.0,
                -128.0,
                -128.0,
                -128.0,
                -128.0,
                -128.0,
                -128.0,
                -128.0,
                -128.0,
                -128.0,
                -128.0,
                -128.0,
                -128.0,
                -128.0,
                -128.0,
                -128.0,
                -128.0,
                -128.0,
                -128.0,
                -128.0,
                -128.0,
                -128.0,
                -128.0,
                -128.0,
                -128.0,
                -128.0,
                -128.0,
                -128.0,
                -128.0,
                -128.0,
                -128.0,
                -128.0,
                -128.0,
                -128.0,
                -128.0,
                -128.0,
                -128.0,
                -128.0,
                -128.0,
                -128.0,
                -128.0,
                -128.0,
                -128.0,
                -128.0,
                -128.0,
                -128.0,
                -128.0,
                -128.0,
                -128.0,
                -128.0,
                -128.0,
                -128.0,
                -128.0,
                -128.0,
                -128.0,
                -128.0,
                -128.0,
                -128.0,
                -128.0,
                -128.0,
                -128.0,
                -128.0,
                -128.0,
                -128.0,
                -128.0,
                -128.0,
                -128.0,
                -128.0,
                -128.0,
                -128.0,
                -128.0,
                -128.0,
                -128.0,
                -128.0,
                -128.0,
                -128.0,
                -128.0,
                -128.0,
                -128.0,
                -128.0,
                -128.0,
                -128.0,
                -128.0,
                -128.0,
                -128.0,
                -128.0,
                -128.0,
                -128.0,
                -128.0,
                -128.0,
                -128.0,
                -128.0,
                -128.0,
                -128.0,
                -128.0,
                -128.0,
                -128.0,
                -128.0,
                -128.0,
                -128.0,
                -128.0,
                -128.0,
                -128.0,
                -128.0,
                -128.0,
                -128.0,
                -128.0,
                -128.0,
                -128.0,
                -128.0,
                -128.0,
                -128.0,
                -128.0,
                -128.0,
                -128.0,
                -128.0,
                -128.0,
                -128.0,
                -128.0,
                -128.0,
                -128.0,
                -128.0,
                -128.0,
                -128.0,
                -128.0,
                -128.0,
                -128.0,
                -128.0,
                -128.0,
                -128.0,
                -128.0,
                -128.0,
                -128.0,
                -128.0,
                -128.0,
                -128.0,
                -128.0,
                -128.0,
                -128.0,
                -128.0,
                -128.0,
                -128.0,
                -128.0,
                -128.0,
                -128.0,
                -128.0,
                -128.0,
                -128.0,
                -128.0,
                -128.0
            ],
            "scale": [
                0.0012546090874820948,
                0.001670048339292407,
                0.0013860975663493,
                0.0016638669442004105,
                0.0014803993981331587,
                0.0017050370806828141,
                0.0014594192616641521,
                0.001582000288181007,
                0.0018054167116720846,
                0.002138169715180993,
                0.0019393196562305093,
                0.0014067291049286723,
                0.001755952020175755,
                0.0017076997071739258,
                0.0016937964828684926,
                0.0014475338806317548,
                0.002295184414833784,
                0.0016697016544640064,
                0.001751699368469417,
                0.0020877576898783445,
                0.002133088419213891,
                0.0017566983588039875,
                0.0019193025073036551,
                0.0017679575830698013,
                0.0019859718158841133,
                0.0003400281129870564,
                0.0015561811801955456,
                0.003246747190132737,
                0.001739997765980661,
                0.001778291435692254,
                0.0017693407135084271,
                0.001564618053398733,
                0.0015968212392181158,
                0.001423366426482914,
                0.0012865077088198324,
                0.0019029610034987682,
                0.0018132940286726463,
                0.002212474588304758,
                0.0006536662461250786,
                0.0014680734602734447,
                0.0033382754772901535,
                0.001602652152692239,
                0.001591041567735374,
                0.001638163928873837,
                0.001996364677324891,
                0.002309890231117606,
                0.002033078344538808,
                0.0018064846673349695,
                0.0016296738758683205,
                0.0017048062290996313,
                0.002100633457303047,
                0.0015302121173590422,
                0.0013764703602302732,
                0.0025755399838089943,
                0.001733096782118082,
                0.0015821847624666108,
                0.001451760297641158,
                0.0015950998452704723,
                0.0014081749832257628,
                0.0014312458224594593,
                0.0012972702970728278,
                0.0019652436021715403,
                0.001626477349461533,
                0.002732696244493127,
                0.001572516281157732,
                0.0016790608642622828,
                0.0014565009770430917,
                0.0021441804710775614,
                0.0017224668990820646,
                0.0022935562301427126,
                0.0015508986543864012,
                0.001682821661233902,
                0.0018183274660259485,
                0.0012425595195963979,
                0.0014362770598381758,
                0.0014565037563443184,
                0.00165903614833951,
                0.0013797962524759488,
                0.001450116944125318,
                0.0015338016673922539,
                0.001617672387510538,
                0.0017241305904462934,
                0.0017701209289953113,
                0.0015590687201717708,
                0.0026744850911200047,
                0.002037537982687354,
                0.0018197089666500688,
                0.0019327136687934399,
                0.00032037391792982817,
                0.00241133407689631,
                0.0021176852751523256,
                0.0018695802427828312,
                0.001558286021463573,
                0.0018244299571961164,
                0.0016321894221418486,
                0.0014716810546815395,
                0.0013384654765992653,
                0.002932809293270111,
                0.0004524342075455934,
                0.0020284808706492186,
                0.0019042763160541654,
                0.0014067317824810743,
                0.001497619436122477,
                0.0015155548655141995,
                0.0013901800151885026,
                0.0014035535277798772,
                0.0014598526823239063,
                0.001996931154280901,
                0.0013832536738688551,
                0.0016629490561372651,
                0.002060739556327462,
                0.0028236336074769497,
                0.0015871158735019954,
                0.0028225076384842396,
                0.00033881267881952226,
                0.0018016437534242868,
                0.0031038415618240833,
                0.0016236199298873544,
                0.0015680199767660907,
                0.0022873354610055685,
                0.0019803530587924746,
                0.0015109677718380306,
                0.001601868609743794,
                0.001385036390274763,
                0.0015562959015369415,
                0.002485812408849597,
                0.0017442986136302352,
                0.0020610307614634354,
                0.0015476006926514031,
                0.0019005784997716546,
                0.0012701834784820676,
                0.0012138526974700568,
                0.0017057921504601836,
                0.0018283021966303428,
                0.001571805332787335,
                0.0018168562091886997,
                0.00200730306096375,
                0.0032139241229742765,
                0.0021271616455138197,
                0.001630413367992311,
                0.0017394949682056904,
                0.002279972191900015,
                0.0020989493932574987,
                0.0016914641293953722,
                0.0020524391438812017,
                0.001530349606604088,
                0.0021073175594210625,
                0.0014295780565589666,
                0.0018090259982272983,
                0.0018398247193545103,
                0.001596834626980126,
                0.0018949211807921529,
                0.002026196103543043,
                0.001335478791101711,
                0.0017476161010563374,
                0.0017472944455221295,
                0.0018407811876386404,
                0.0028327172622084618,
                0.001609920047399566,
                0.002187202295919103,
                0.0017379737691953778,
                0.0017024766741775153,
                0.002195710316300392,
                0.002166425110772252,
                0.001693866914138198,
                0.0026107395258475477,
                0.0014850437873974442,
                0.0018947882344946265,
                0.0018412807560342504,
                0.002960644895210862,
                0.0016017963644117117,
                0.0016526688123121858,
                0.0015963943442329764,
                0.00128044610417734,
                0.0018970902310684323,
                0.0016223233281158088,
                0.0014955188380554318,
                0.0032506443094462156,
                0.0014366478197217927,
                0.0019153098421772635,
                0.0012271312747414657,
                0.0017440420342609286,
                0.0026390175335109234,
                0.0014277503011733527,
                0.0017523859429547167,
                0.0014938797103241086,
                0.0016297637008306548,
                0.0022016882430762053,
                0.0015671071339779952,
                0.0018351991893723607,
                0.001609756838618301,
                0.0026110250037163496,
                0.001612042891792953,
                0.0031140462961047888,
                0.002155693480744958,
                0.0017500221729278564,
                0.002229187870398164,
                0.0013447124657668466,
                0.0015238670148248748,
                0.001696129678748548,
                0.001673972001299262,
                0.0018916358863274882,
                0.002052704803645611,
                0.0015702570090070367,
                0.0014421857194975019,
                0.0014778573531657457,
                0.0016139644430950284,
                0.0017102047568187118,
                0.0013398410767082153,
                0.0015149910853603694,
                0.0019582501781268383,
                0.0015994596760720015,
                0.0017406942788511515,
                0.0016170531276642806,
                0.001643929777182932,
                0.0019865783397108316,
                0.0016100745415315032,
                0.0014673342229798436,
                0.001692372839897871,
                0.0013953027293438047,
                0.0016088763950392604,
                0.0015826700255274773,
                0.0026926929131150246,
                0.0017874655313789845,
                0.001593092881788419,
                0.0015155532164499164,
                0.0026603725273162127,
                0.0019341767765581608,
                0.00170879065990448,
                0.001981104491278529,
                0.001672244630753994,
                0.001377867197427224,
                0.0013519258011044479,
                0.001993784448131919,
                0.0017155116656795144,
                0.002770964289084077,
                0.001633748529464241,
                0.0015798774547874928,
                0.0025043569039553404,
                0.0013950084607432208,
                0.0018379375105723739,
                0.001705072121694684,
                0.0025849195662885904,
                0.0018399786057434683,
                0.0017358914483338594,
                0.0014298540772870183,
                0.0014984344597905874,
                0.0012854720698669553,
                0.0016446409281343222,
                0.001528036993319594,
                0.0032685494516044855,
                0.0026310633402317762,
                0.0017735590226948261,
                0.0011943025747314095,
                0.0018768482841551304,
                0.0017878689104691148
            ]
        },
        {
            "bw": 8,
            "dtype": "INT",
            "enc_type": "PER_CHANNEL",
            "is_sym": true,
            "name": "net.3.weight",
            "offset": [
                -128.0,
                -128.0,
                -128.0,
                -128.0,
                -128.0,
                -128.0,
                -128.0,
                -128.0,
                -128.0,
                -128.0,
                -128.0,
                -128.0,
                -128.0,
                -128.0,
                -128.0,
                -128.0,
                -128.0,
                -128.0,
                -128.0,
                -128.0,
                -128.0,
                -128.0,
                -128.0,
                -128.0,
                -128.0,
                -128.0,
                -128.0,
                -128.0,
                -128.0,
                -128.0,
                -128.0,
                -128.0,
                -128.0,
                -128.0,
                -128.0,
                -128.0,
                -128.0,
                -128.0,
                -128.0,
                -128.0,
                -128.0,
                -128.0,
                -128.0,
                -128.0,
                -128.0,
                -128.0,
                -128.0,
                -128.0,
                -128.0,
                -128.0,
                -128.0,
                -128.0,
                -128.0,
                -128.0,
                -128.0,
                -128.0,
                -128.0,
                -128.0,
                -128.0,
                -128.0,
                -128.0,
                -128.0,
                -128.0,
                -128.0,
                -128.0,
                -128.0,
                -128.0,
                -128.0,
                -128.0,
                -128.0,
                -128.0,
                -128.0,
                -128.0,
                -128.0,
                -128.0,
                -128.0,
                -128.0,
                -128.0,
                -128.0,
                -128.0,
                -128.0,
                -128.0,
                -128.0,
                -128.0,
                -128.0,
                -128.0,
                -128.0,
                -128.0,
                -128.0,
                -128.0,
                -128.0,
                -128.0,
                -128.0,
                -128.0,
                -128.0,
                -128.0,
                -128.0,
                -128.0,
                -128.0,
                -128.0,
                -128.0,
                -128.0,
                -128.0,
                -128.0,
                -128.0,
                -128.0,
                -128.0,
                -128.0,
                -128.0,
                -128.0,
                -128.0,
                -128.0,
                -128.0,
                -128.0,
                -128.0,
                -128.0,
                -128.0,
                -128.0,
                -128.0,
                -128.0,
                -128.0,
                -128.0,
                -128.0,
                -128.0,
                -128.0,
                -128.0,
                -128.0,
                -128.0
            ],
            "scale": [
                0.002354860071122177,
                0.001641090929977537,
                0.0018807126311805305,
                0.002371105831116438,
                0.00217362935654819,
                0.0024942478630691767,
                0.0017333092400804162,
                0.0018418809631839395,
                0.0017523418261310246,
                0.0021170643158257008,
                0.0023962731938809156,
                0.0019211993785575032,
                0.0019861427135765553,
                0.0018077209824696183,
                0.0017222393685438501,
                0.0026351530251540536,
                0.0022904166555780124,
                0.00292372820884224,
                0.0017707130805713924,
                0.001615107880802605,
                0.002189245540648699,
                0.0021718875505030155,
                0.001991406548768282,
                0.0018110936507582664,
                0.002007721681294479,
                0.002111794676367692,
                0.002047356218099594,
                0.001799923600628972,
                0.00205897050909698,
                0.0018424246254868395,
                0.0021135227289050817,
                0.0024293952100858914,
                0.0018896482652053237,
                0.002092804992571473,
                0.0023376894748117043,
                0.0020953919738531113,
                0.0017091543890359834,
                0.0020637274719774723,
                0.0025827649515122175,
                0.0018677861662581563,
                0.0024619658943265676,
                0.0025958118476266936,
                0.0020774854347109795,
                0.0021120037619523175,
                0.001867597849350276,
                0.0024070534855127335,
                0.002091249847036647,
                0.001979418331757188,
                0.0015928800415805006,
                0.0019954065792262554,
                0.0017454092158004642,
                0.0018809043103829026,
                0.002033170048646101,
                0.002317865767816859,
                0.0014943342039904256,
                0.0017326022498309612,
                0.0021973925782000927,
                0.0023569848854094744,
                0.0023445139719745307,
                0.002024677349254489,
                0.002125655806909396,
                0.0020185568201260304,
                0.0025588092394173145,
                0.0025975187932412457,
                0.002206113189458847,
                0.0023107731249183416,
                0.0027024531736969948,
                0.001853567643428412,
                0.0019245247437259343,
                0.002942772815003991,
                0.0025003953712193047,
                0.0020071198232471943,
                0.0022635579578519807,
                0.0019552972842389205,
                0.0019449340179562569,
                0.0024947538040578365,
                0.0024546291679143906,
                0.002070021815598011,
                0.001963822403922677,
                0.002143578031870324,
                0.002392573282122612,
                0.0020843359429066574,
                0.0019701458513736725,
                0.0015619290391291221,
                0.0019307318143546581,
                0.0027272246015353466,
                0.0016409643287733785,
                0.0025044562309745728,
                0.0019312502126994095,
                0.0022532944567501545,
                0.0017604033928364515,
                0.002687952248379588,
                0.0015761380589853122,
                0.002529528197341078,
                0.002472243440432811,
                0.001551139659768953,
                0.0018435138182377252,
                0.002220552647486329,
                0.0023354734294116497,
                0.0024435785342389205,
                0.002606996870416356,
                0.002018016858363715,
                0.00232758023776114,
                0.0022327895276248455,
                0.0018426066963002086,
                0.002038327493066863,
                0.0020998812566592,
                0.0021993553075264757,
                0.002503526397049427,
                0.00208909023465134,
                0.0015696552582085133,
                0.0024326162075433205,
                0.0007115203770808876,
                0.0009252331036282336,
                0.00222088220551258,
                0.002107019968858854,
                0.0025569744936124548,
                0.002133782923690916,
                0.0020645679906010628,
                0.0022367804776877165,
                0.0017811909783631563,
                0.0023139093335219256,
                0.002114730322454858,
                0.00209450745023787,
                0.0020786723283332162,
                0.0018355553038418293,
                0.0021395089588766023,
                0.0019704258348059466
            ]
        },
        {
            "bw": 8,
            "dtype": "INT",
            "enc_type": "PER_CHANNEL",
            "is_sym": true,
            "name": "net.6.weight",
            "offset": [
                -128.0,
                -128.0,
                -128.0,
                -128.0,
                -128.0,
                -128.0,
                -128.0,
                -128.0,
                -128.0,
                -128.0
            ],
            "scale": [
                0.0022432347759604454,
                0.002208178164437413,
                0.0021883973386138678,
                0.00219842535443604,
                0.002342340749079787,
                0.0023820127826184034,
                0.0025013971608132124,
                0.0020963181741535664,
                0.0020221807062625885,
                0.002383831888437271
            ]
        }
    ],
    "quantizer_args": {
        "activation_bitwidth": 8,
        "dtype": "int",
        "is_symmetric": true,
        "param_bitwidth": 8,
        "per_channel_quantization": true,
        "quant_scheme": "min_max"
    },
    "version": "1.0.0"
}